<unk>	0
<s>	0
</s>	0
<pad>	0
<blank>	0
▁là	-3.21571
▁cái	-3.61461
▁mình	-3.88002
▁có	-3.98777
▁thì	-4.11231
▁mà	-4.14746
▁một	-4.2517
▁không	-4.32319
▁bạn	-4.4062
▁và	-4.47565
▁nó	-4.48861
▁những	-4.49606
▁của	-4.66608
▁người	-4.69962
▁ta	-4.81556
▁các	-4.83929
▁đó	-4.85715
▁sẽ	-4.87282
▁đi	-4.91875
▁được	-4.93045
▁như	-4.9457
▁cho	-4.9563
▁rất	-4.9581
▁cũng	-5.02206
▁này	-5.04472
▁để	-5.05816
▁chúng	-5.06966
▁với	-5.11239
▁em	-5.12059
▁thể	-5.20121
▁phải	-5.20927
▁trong	-5.21813
▁làm	-5.22865
▁nhiều	-5.29584
▁ra	-5.31815
▁khi	-5.34332
▁rồi	-5.38566
▁ở	-5.4775
▁anh	-5.48422
▁về	-5.50495
▁nhưng	-5.54044
▁vì	-5.62072
▁học	-5.62648
▁gì	-5.62715
▁thấy	-5.64042
▁nói	-5.65054
▁lại	-5.65337
▁đấy	-5.65437
▁hai	-5.65485
▁họ	-5.66085
▁hơn	-5.66088
▁đã	-5.66117
▁nào	-5.68242
▁việc	-5.69109
▁sự	-5.6966
▁hay	-5.72784
▁đến	-5.78216
▁thế	-5.78264
▁nên	-5.80194
▁đầu	-5.8633
▁cảm	-5.87752
▁đây	-5.88751
▁từ	-5.92447
▁vậy	-5.93737
▁giờ	-5.94029
▁biết	-5.95415
▁nghĩ	-5.95986
▁năm	-5.96384
▁con	-5.96877
▁công	-5.98887
▁điều	-6.029
▁chỉ	-6.05149
▁nếu	-6.05499
▁thôi	-6.06517
▁cả	-6.07742
▁tại	-6.0817
▁đúng	-6.08667
▁ba	-6.09189
▁vào	-6.09669
▁luôn	-6.10278
▁thời	-6.11212
▁chính	-6.11387
▁quan	-6.12009
▁muốn	-6.12897
▁khác	-6.12938
▁còn	-6.14474
n	-6.14554
▁đang	-6.15318
▁thứ	-6.17877
▁ngày	-6.18005
▁mọi	-6.19169
▁mới	-6.19521
▁quá	-6.22072
▁tôi	-6.23787
▁vi	-6.24077
▁bản	-6.24711
▁sao	-6.25257
▁nhất	-6.26444
▁chị	-6.27866
▁nữa	-6.28524
▁cách	-6.28911
▁ti	-6.29047
▁cần	-6.30581
▁thân	-6.30785
▁á	-6.31124
▁tin	-6.3366
▁câu	-6.33674
▁sau	-6.35151
i	-6.35938
▁ai	-6.379
▁lúc	-6.38611
▁ô	-6.3913
▁bị	-6.39244
▁thành	-6.41377
▁rằng	-6.41936
▁theo	-6.42316
▁sống	-6.42382
▁thích	-6.45456
▁bây	-6.45503
▁tự	-6.492
▁cô	-6.49461
▁thực	-6.49575
▁phần	-6.50464
▁chuyện	-6.50927
▁hỏi	-6.53056
▁nhau	-6.53463
▁nhận	-6.53651
▁ý	-6.54457
▁lên	-6.54651
▁cuộc	-6.55093
▁tốt	-6.57154
▁đâu	-6.57262
▁điểm	-6.57279
▁số	-6.59077
▁gian	-6.60268
ng	-6.61521
▁trước	-6.61911
▁trên	-6.61912
▁trường	-6.62022
▁vẫn	-6.62654
▁bi	-6.65539
▁thật	-6.66438
▁qua	-6.67556
▁sờ	-6.68002
▁chưa	-6.6877
▁bởi	-6.68988
▁yêu	-6.69906
▁ri	-6.70547
▁hết	-6.71245
▁hiểu	-6.71504
▁tiếp	-6.72614
▁mươi	-6.72693
▁cùng	-6.73168
▁nhìn	-6.73272
▁tới	-6.73985
▁hiện	-6.74105
▁năng	-6.74967
▁trình	-6.75648
▁đề	-6.75959
▁thường	-6.76219
▁ấy	-6.77056
▁tập	-6.77078
▁trọng	-6.77683
m	-6.77747
▁nhà	-6.78076
▁động	-6.78709
▁si	-6.78808
▁phát	-6.7905
▁lý	-6.79632
▁hoặc	-6.80586
▁kiểu	-6.82184
▁xem	-6.82659
▁định	-6.83003
▁tư	-6.83057
▁sản	-6.83301
▁việt	-6.83922
▁tâm	-6.84571
▁giá	-6.84887
▁bắt	-6.85952
▁tiền	-6.86304
▁hợp	-6.86517
▁sinh	-6.86793
▁gia	-6.86812
▁hàng	-6.86965
▁chia	-6.87241
▁nay	-6.88618
▁tất	-6.89571
▁bên	-6.91227
▁dụng	-6.91765
▁bao	-6.93188
▁đối	-6.93252
▁à	-6.93286
▁ăn	-6.93353
▁mười	-6.93454
▁hãy	-6.93734
▁tiên	-6.93747
▁trăm	-6.93887
▁nhiên	-6.94296
▁nam	-6.94518
▁tìm	-6.97336
▁sừn	-6.9816
▁cơ	-6.98181
▁a	-6.98895
▁hôm	-6.9891
▁gọi	-6.99174
▁khó	-6.99231
▁vấn	-6.99308
▁dụ	-6.99351
▁nghe	-6.99443
▁tiếng	-6.99961
▁cứ	-7.00026
▁mẹ	-7.00828
▁nghiệp	-7.01375
▁ví	-7.01572
▁nghĩa	-7.03191
▁sẻ	-7.03234
▁vừa	-7.04189
▁phẩm	-7.04529
▁in	-7.04776
▁chắc	-7.0487
▁thông	-7.05073
▁ờ	-7.0531
▁lời	-7.05424
▁lai	-7.05624
▁lần	-7.06162
▁li	-7.06317
▁bài	-7.06791
▁đổi	-7.07077
▁thay	-7.07291
▁ngoài	-7.08021
▁dùng	-7.08441
▁hình	-7.0861
▁nước	-7.08611
▁tình	-7.08728
t	-7.0886
▁lớn	-7.08965
▁thức	-7.09581
▁chứ	-7.10314
▁xong	-7.10368
▁nhân	-7.11579
▁mỗi	-7.13544
▁đồng	-7.14317
▁mua	-7.14672
▁dạ	-7.14857
▁chọn	-7.1495
▁kết	-7.15268
▁sách	-7.15487
▁tính	-7.16035
▁hội	-7.16119
▁ni	-7.16242
▁mặt	-7.16249
▁hệ	-7.16736
▁gặp	-7.1676
▁tạo	-7.18802
▁do	-7.1938
▁trở	-7.20251
▁dễ	-7.21218
▁bằng	-7.21384
▁trung	-7.21586
▁lực	-7.22125
▁	-7.22461
▁hành	-7.2329
▁kinh	-7.23335
o	-7.2337
▁tức	-7.2383
u	-7.24085
▁giúp	-7.24694
▁thêm	-7.25601
▁toàn	-7.25916
▁triển	-7.27616
▁tiêu	-7.29091
▁khá	-7.29204
▁nha	-7.29878
▁đọc	-7.29892
▁xin	-7.299
▁khoảng	-7.30446
▁đờ	-7.3057
▁chút	-7.32029
▁cao	-7.324
▁bình	-7.32522
▁sử	-7.32722
▁ông	-7.33009
▁hoàn	-7.33178
▁vô	-7.33583
▁đều	-7.34465
▁bộ	-7.3461
▁mi	-7.34927
▁giống	-7.35645
▁lắm	-7.35684
▁hạn	-7.36295
▁cố	-7.36962
▁thương	-7.37009
a	-7.37671
▁doanh	-7.37837
▁ca	-7.37976
▁hơi	-7.38432
▁biệt	-7.39031
▁i	-7.39454
▁trị	-7.39675
▁càng	-7.39823
▁trả	-7.39828
▁kê	-7.40173
▁sai	-7.40866
▁vị	-7.41138
▁nghiệm	-7.41381
▁bốn	-7.42467
▁en	-7.42923
▁tu	-7.4398
▁bờ	-7.44215
▁chi	-7.44287
▁giải	-7.44403
▁độ	-7.44543
▁da	-7.44916
▁sáng	-7.44927
▁giới	-7.46125
▁chủ	-7.46167
▁sang	-7.46305
▁lượng	-7.46727
▁lâu	-7.46987
▁từng	-7.47172
▁nhớ	-7.47644
▁di	-7.47981
▁nhỏ	-7.49004
▁gần	-7.49138
▁quả	-7.49504
▁đủ	-7.49712
▁tích	-7.50118
▁sâu	-7.50337
▁viên	-7.50495
▁dành	-7.50517
▁quay	-7.50774
▁vui	-7.5089
p	-7.5122
▁ngay	-7.52104
▁quyết	-7.52472
y	-7.5284
▁suy	-7.52908
▁đa	-7.53024
▁đẹp	-7.53064
▁ít	-7.53202
▁ty	-7.53446
▁đặc	-7.5399
▁kỳ	-7.54036
▁đưa	-7.54456
▁đừng	-7.54692
▁hướng	-7.54694
▁h	-7.54701
▁quen	-7.54796
▁đại	-7.5483
▁liên	-7.54889
▁chất	-7.55112
▁đôi	-7.55431
▁đồ	-7.5607
▁đơn	-7.5628
▁tế	-7.56485
▁bảo	-7.56772
▁xi	-7.5685
▁xúc	-7.57203
▁rõ	-7.57638
▁màu	-7.58322
▁chung	-7.58348
▁tháng	-7.58996
▁tài	-7.58996
▁cuối	-7.59093
▁thi	-7.59433
▁kiến	-7.60031
▁chí	-7.60931
▁áp	-7.61471
▁bé	-7.61869
▁thử	-7.62175
▁hiệu	-7.62275
▁đời	-7.62815
▁kia	-7.63338
▁cực	-7.63393
▁kỹ	-7.64059
▁bất	-7.64214
▁mối	-7.64523
▁xuất	-7.64523
▁ơn	-7.64566
▁chơi	-7.64575
▁trẻ	-7.64835
▁tinh	-7.6531
▁hồi	-7.65475
▁cuốn	-7.65719
▁thị	-7.66215
▁phương	-7.66401
▁tuổi	-7.6714
▁ảnh	-7.67247
▁mất	-7.67566
▁đường	-7.67619
▁tác	-7.6772
▁đặt	-7.68637
▁cờ	-7.68964
▁sáu	-7.69231
▁môn	-7.69389
▁bước	-7.69451
▁trải	-7.69787
▁mang	-7.7039
▁gắng	-7.70433
▁bỏ	-7.70434
c	-7.70966
▁hóa	-7.71476
▁tám	-7.71537
▁khách	-7.71815
▁mong	-7.71848
▁du	-7.71995
▁chẳng	-7.72199
▁duy	-7.72246
▁nhá	-7.72412
▁mô	-7.72936
▁ngồi	-7.73095
▁so	-7.73348
▁mai	-7.73372
▁mấy	-7.73377
▁dù	-7.75883
▁san	-7.75957
▁mục	-7.76124
▁an	-7.76516
▁uống	-7.76823
▁chương	-7.77233
▁ma	-7.7734
▁chuẩn	-7.77703
▁lo	-7.77977
▁xe	-7.78226
▁nè	-7.783
▁mạnh	-7.78654
▁ha	-7.78732
▁ngành	-7.79131
▁phụ	-7.79146
▁ạ	-7.79278
▁nghệ	-7.79487
▁coi	-7.79967
▁nội	-7.80089
▁tơ	-7.80094
▁đánh	-7.80222
▁sức	-7.80455
▁trang	-7.81473
▁dài	-7.81489
▁kể	-7.8204
▁bảy	-7.82781
▁tay	-7.8281
▁tương	-7.83466
▁tục	-7.83783
▁lớp	-7.84029
▁cầu	-7.84408
▁sợ	-7.84666
▁riêng	-7.85039
▁lấy	-7.85675
▁giác	-7.85734
▁loại	-7.85803
▁minh	-7.85993
▁hát	-7.86004
▁thu	-7.86054
▁phù	-7.86255
▁đình	-7.86514
▁thầy	-7.86831
▁viết	-7.869
▁tham	-7.87036
▁giả	-7.87249
▁pháp	-7.8744
▁linh	-7.88016
▁trí	-7.88253
▁phân	-7.88461
▁trời	-7.88722
▁chín	-7.89324
▁yếu	-7.89714
▁thiết	-7.89932
▁na	-7.90286
▁pho	-7.9029
▁khiến	-7.90307
▁quốc	-7.9173
▁ki	-7.91834
▁khả	-7.91863
▁chắn	-7.9234
▁mặc	-7.92682
▁cá	-7.93065
▁ơi	-7.93071
nh	-7.93131
▁ừ	-7.93516
▁xã	-7.94205
▁bán	-7.94391
▁chờ	-7.94979
▁cấp	-7.95178
▁sa	-7.95495
▁liệu	-7.95812
▁r	-7.95994
▁tưởng	-7.96236
▁lòng	-7.96307
▁tên	-7.96401
▁la	-7.96438
▁phi	-7.96524
▁mở	-7.96667
▁mức	-7.96877
▁tờ	-7.96882
▁ngủ	-7.97451
▁buổi	-7.97522
▁lập	-7.98756
▁hạnh	-7.98916
▁văn	-7.98969
▁nhanh	-7.99332
▁môi	-7.99337
▁kiếm	-7.99481
▁ét	-8.00007
▁vài	-8.00813
▁giản	-8.00956
▁sân	-8.00963
▁trò	-8.00978
▁mày	-8.02156
▁l	-8.02796
▁diu	-8.03109
▁diễn	-8.03519
▁đứa	-8.03519
▁máy	-8.03614
▁đoạn	-8.03672
▁ây	-8.03917
▁lựa	-8.04208
▁vọng	-8.0467
▁đạt	-8.04825
▁kế	-8.05206
▁tuy	-8.05916
▁gi	-8.06836
▁hoạt	-8.06934
▁tăng	-8.07171
▁sĩ	-8.07172
▁khăn	-8.07806
▁quanh	-8.08243
▁hưởng	-8.0925
▁giỏi	-8.09818
▁cạnh	-8.09899
▁món	-8.10123
▁dạy	-8.10363
▁cụ	-8.10594
▁b	-8.11013
▁xung	-8.11368
▁nô	-8.11421
▁tóc	-8.11794
▁điện	-8.12203
▁chào	-8.12286
▁dung	-8.12483
▁ng	-8.12511
▁cha	-8.12622
▁tiết	-8.12955
▁phúc	-8.13046
▁mắt	-8.13212
▁phòng	-8.13459
▁chuyên	-8.13543
▁xác	-8.13883
▁nhiêu	-8.14561
▁khoa	-8.1517
▁tối	-8.15227
▁to	-8.15362
▁dần	-8.15423
▁đương	-8.15502
▁sư	-8.15515
▁v	-8.16125
▁tượng	-8.16193
▁giao	-8.16279
▁ch	-8.16381
▁xuống	-8.17063
▁giáo	-8.17243
▁báo	-8.17426
▁phút	-8.17515
▁nguyên	-8.17766
á	-8.17903
▁lợi	-8.18029
▁su	-8.18161
▁ràng	-8.18205
▁xa	-8.18228
▁lăm	-8.18294
▁gái	-8.18382
▁mạng	-8.18399
▁rô	-8.18489
▁chứng	-8.18682
▁sô	-8.18707
▁bố	-8.19041
▁dịch	-8.19363
▁lô	-8.19433
▁cây	-8.19543
▁phí	-8.19848
▁thói	-8.20711
▁tim	-8.20837
▁n	-8.21081
▁men	-8.21556
▁thậm	-8.21988
▁ứng	-8.21988
▁đất	-8.22172
▁cứu	-8.22597
▁chuyển	-8.2291
▁bà	-8.22949
▁biến	-8.23051
▁g	-8.23407
▁xây	-8.23941
▁xưa	-8.24028
▁chỗ	-8.24129
▁tuần	-8.24139
▁buồn	-8.24255
▁tao	-8.2442
▁nơi	-8.24433
▁nhạc	-8.24497
▁đáng	-8.2466
▁dự	-8.24684
▁phim	-8.2474
▁lắng	-8.25064
▁đ	-8.25227
▁tố	-8.25497
▁sắp	-8.25538
▁chú	-8.25575
▁dẫn	-8.25728
▁giữ	-8.25953
▁x	-8.25984
▁vụ	-8.2622
▁nguồn	-8.26782
▁đô	-8.26976
▁thú	-8.27227
▁truyền	-8.27458
▁hả	-8.27716
▁quản	-8.27801
▁s	-8.27858
▁mỹ	-8.27944
▁triệu	-8.28139
▁com	-8.28692
▁giữa	-8.28693
▁toán	-8.28825
▁lịch	-8.29416
▁e	-8.29454
▁chịu	-8.29454
▁quên	-8.30072
▁dân	-8.30817
▁thần	-8.31017
▁cộng	-8.31413
▁chấp	-8.31818
▁khỏe	-8.31818
▁chân	-8.31928
▁nền	-8.32122
▁mái	-8.3312
▁án	-8.33178
▁hoa	-8.33336
▁sơ	-8.33359
▁tụi	-8.33478
▁nghiên	-8.33557
▁mời	-8.3468
▁sẵn	-8.34694
▁tô	-8.34815
▁mát	-8.34949
▁m	-8.35934
▁d	-8.36201
▁dưới	-8.36482
▁giai	-8.36608
▁thuộc	-8.3712
▁quý	-8.37122
▁vẻ	-8.3766
▁chạy	-8.38627
▁luận	-8.39061
▁ích	-8.39061
▁ngữ	-8.39062
▁cát	-8.39414
▁phai	-8.39505
▁chăm	-8.39826
▁nhắc	-8.39936
▁quy	-8.40505
▁phờ	-8.40825
▁vật	-8.40935
▁bê	-8.41036
▁ngoại	-8.4104
▁lỗi	-8.41072
▁trai	-8.42157
▁nổi	-8.42286
▁tầm	-8.42494
▁bè	-8.42619
▁nhóm	-8.42833
▁giảm	-8.43255
▁chức	-8.43455
▁thái	-8.43628
▁tít	-8.43695
▁ngân	-8.43752
▁dựng	-8.43787
▁nghề	-8.4397
▁chiếc	-8.44429
▁thống	-8.44429
▁thiếu	-8.44543
▁diện	-8.44659
▁nghìn	-8.44774
▁sắc	-8.45468
▁nh	-8.4567
▁sát	-8.45708
▁thoả	-8.45919
▁đau	-8.45996
▁may	-8.46039
▁tr	-8.47027
▁thiện	-8.47106
▁ban	-8.47761
▁trợ	-8.48065
▁vai	-8.48171
▁chế	-8.48214
▁kênh	-8.48278
▁dục	-8.48372
▁hoạch	-8.48413
▁bô	-8.4849
▁cổ	-8.48535
▁nãy	-8.48652
▁xử	-8.48655
▁vòng	-8.48772
▁vực	-8.48772
▁bo	-8.49318
▁nhẹ	-8.49378
▁bác	-8.49861
g	-8.49972
▁hằng	-8.49979
▁góc	-8.501
▁đứng	-8.501
▁nhật	-8.50226
▁mê	-8.50253
▁tổ	-8.5123
▁kiện	-8.5157
▁nối	-8.51694
▁rít	-8.51694
▁ngàn	-8.52058
▁cười	-8.52438
▁kiểm	-8.52562
▁rét	-8.52571
▁th	-8.52665
▁dòng	-8.52687
▁cân	-8.53317
▁nữ	-8.54515
▁đạo	-8.54703
▁hồ	-8.54966
▁phong	-8.55082
▁khán	-8.55336
▁bệnh	-8.5547
▁niềm	-8.55477
▁tiến	-8.56009
▁ga	-8.56287
▁dậy	-8.56502
▁bót	-8.56529
▁phục	-8.5738
▁thanh	-8.57683
▁xét	-8.58076
▁túp	-8.58224
▁sét	-8.5834
▁thoại	-8.58597
▁gờ	-8.58883
▁rì	-8.59138
▁luyện	-8.59261
▁sớm	-8.59395
▁nằm	-8.59662
▁ghi	-8.60064
▁gửi	-8.60064
▁bai	-8.60547
▁tranh	-8.60631
▁bay	-8.60722
▁chết	-8.61124
▁sở	-8.61697
▁trái	-8.62099
▁âm	-8.62268
▁xảy	-8.62381
▁ép	-8.62419
▁lây	-8.62662
▁nhu	-8.62733
▁tuyệt	-8.62787
▁xíu	-8.62925
▁áo	-8.63094
▁nhờ	-8.6322
▁phá	-8.63286
▁sen	-8.63324
▁túi	-8.63694
▁ren	-8.63996
ạ	-8.64312
▁quyền	-8.64879
▁tí	-8.64912
▁bơ	-8.65868
▁xu	-8.65979
▁nét	-8.66193
▁luật	-8.66445
▁trưởng	-8.66728
▁hỗ	-8.66893
▁chiều	-8.67016
▁dưỡng	-8.67016
▁dờ	-8.6718
▁chữ	-8.67388
▁nhiệm	-8.67449
▁thất	-8.67739
▁ưu	-8.67884
▁kỷ	-8.68029
▁ten	-8.68436
▁min	-8.68823
▁thẳng	-8.68906
▁nhập	-8.68913
▁bọn	-8.692
▁xanh	-8.69553
▁tôn	-8.69625
▁huynh	-8.70103
ó	-8.7094
▁xấu	-8.71281
▁thuật	-8.71291
ch	-8.71469
▁gu	-8.71488
▁on	-8.72212
▁chấm	-8.72339
▁vời	-8.72492
▁cáo	-8.72648
▁lít	-8.72795
▁ro	-8.72796
▁dạng	-8.72976
▁mắn	-8.73111
▁chả	-8.73213
▁cảnh	-8.73602
▁lĩnh	-8.73715
▁lát	-8.73936
ấ	-8.74022
▁niệm	-8.74024
▁đội	-8.74029
▁phản	-8.74954
▁phía	-8.75063
▁tai	-8.75159
▁lan	-8.75357
▁nghỉ	-8.76052
▁gây	-8.76063
▁phố	-8.7622
▁đen	-8.76254
▁rai	-8.76466
▁trách	-8.76525
▁hà	-8.77107
▁mệt	-8.77161
▁mắc	-8.7732
▁mùi	-8.7764
▁ổn	-8.77643
▁chiến	-8.77979
▁mơ	-8.77984
▁pha	-8.78004
▁thiên	-8.78149
▁nờ	-8.78794
▁vượt	-8.7893
▁suốt	-8.79113
▁ngắn	-8.7958
▁bớt	-8.79744
ơ	-8.79865
▁tây	-8.79913
▁sàng	-8.8057
▁đàn	-8.81043
▁nông	-8.81159
ắ	-8.81251
▁bu	-8.81298
▁đóng	-8.81516
▁vàng	-8.8174
ô	-8.82552
ờ	-8.82722
ế	-8.82839
▁đớt	-8.83069
▁lu	-8.8326
▁rút	-8.83408
▁rây	-8.83594
▁mừn	-8.83738
▁vờ	-8.83776
▁tảng	-8.83979
▁khoản	-8.84403
▁khí	-8.84597
▁tra	-8.84627
▁dữ	-8.84775
▁tổng	-8.84969
▁xuân	-8.853
▁cải	-8.85777
▁ký	-8.85811
▁vơ	-8.85842
▁me	-8.86072
▁co	-8.86093
▁va	-8.86585
▁đăng	-8.86684
▁nâng	-8.86859
▁hồng	-8.87243
▁ly	-8.87335
▁chồng	-8.87396
▁cầm	-8.87564
▁phiếu	-8.87564
▁khởi	-8.87919
▁vững	-8.87919
▁đầy	-8.88096
ư	-8.88285
▁hẹn	-8.8881
▁tận	-8.8881
▁bàn	-8.88865
▁lương	-8.89169
▁nít	-8.89169
▁dàng	-8.90073
▁xếp	-8.90257
▁đá	-8.90435
▁ngôn	-8.90435
▁dừng	-8.90624
▁tệ	-8.90809
▁hài	-8.90825
ết	-8.90871
▁bồ	-8.90895
▁lẽ	-8.91361
▁đông	-8.91416
▁len	-8.9147
▁ngược	-8.91716
▁rộng	-8.9172
▁qu	-8.91839
▁đỡ	-8.91913
▁vệ	-8.91924
▁phây	-8.92462
▁cà	-8.92642
▁xê	-8.92756
▁đáp	-8.92885
▁đích	-8.93202
▁khu	-8.93319
▁dám	-8.9339
í	-8.93391
ụ	-8.93449
▁chu	-8.93536
▁khuyên	-8.93765
▁hộ	-8.93765
▁bát	-8.94379
▁khóa	-8.94391
▁khỏi	-8.9452
▁lãnh	-8.94539
▁thuyết	-8.9471
▁pi	-8.94844
▁lưu	-8.949
▁địa	-8.949
▁vin	-8.9499
▁hẳn	-8.95091
▁tắc	-8.95473
▁độc	-8.95867
▁t	-8.96181
▁ken	-8.96195
▁sóc	-8.96241
▁trạng	-8.96241
é	-8.96566
▁búc	-8.96822
▁dõi	-8.97016
▁giang	-8.97725
▁đem	-8.98014
▁ấn	-8.98189
▁đức	-8.98386
▁liền	-8.98386
▁mờ	-8.98439
▁mo	-8.9857
▁thiệu	-8.98583
e	-8.98659
▁hiểm	-8.98781
▁sánh	-8.98979
▁y	-8.99278
▁đu	-8.99524
▁hứng	-8.99575
▁nắng	-8.99575
▁xuyên	-8.99575
▁nhắn	-8.99575
▁tỷ	-8.99576
▁đêm	-8.99853
▁nỗi	-8.99936
▁khổ	-9.00179
ớ	-9.00192
▁tử	-9.00781
▁dầu	-9.00783
▁lạ	-9.00866
à	-9.01379
▁son	-9.01515
▁suất	-9.01589
▁cửa	-9.01604
▁hề	-9.01636
▁khai	-9.02048
▁sin	-9.02095
▁c	-9.02323
▁cam	-9.0237
▁két	-9.02406
▁tét	-9.02423
▁căn	-9.02797
▁phổ	-9.02821
▁mét	-9.02828
▁nhảy	-9.0323
ù	-9.03315
▁thư	-9.03391
▁chúc	-9.03535
▁trì	-9.03827
▁thấp	-9.03853
▁hữu	-9.04061
ốt	-9.04109
▁cu	-9.0421
ê	-9.04327
▁vốn	-9.04479
▁kh	-9.04615
▁dựa	-9.04827
▁chống	-9.05109
▁bít	-9.05159
▁vùng	-9.0532
▁thách	-9.05322
▁thủ	-9.05481
▁cận	-9.05532
▁nỗ	-9.05588
▁tặng	-9.05743
▁trao	-9.05832
▁tránh	-9.05956
▁bật	-9.05967
▁đít	-9.06382
▁ngon	-9.06382
▁khánh	-9.06602
ố	-9.06805
▁kì	-9.06962
▁đam	-9.07116
▁quỹ	-9.07239
▁nuôi	-9.07455
▁châu	-9.07887
▁sổ	-9.07897
▁mùa	-9.08104
▁kiệm	-9.08758
▁sạch	-9.08759
▁phê	-9.08768
▁mãi	-9.08822
ép	-9.09048
▁hi	-9.09112
▁trà	-9.09147
▁vân	-9.09414
▁bữa	-9.09416
▁má	-9.09536
▁mốt	-9.0966
▁đà	-9.09713
▁quà	-9.09871
▁đỏ	-9.10093
▁tát	-9.10101
▁phủ	-9.10301
▁quần	-9.10309
▁mẫu	-9.10968
▁đợi	-9.10968
▁thiệt	-9.11191
▁ngờ	-9.11231
▁vận	-9.1164
▁quán	-9.12008
▁phép	-9.12328
▁cũ	-9.12419
▁tết	-9.12502
ề	-9.127
▁danh	-9.12733
ệ	-9.12809
▁u	-9.12964
▁vợ	-9.13025
▁yên	-9.13235
▁chỉnh	-9.13538
▁ru	-9.13803
▁góp	-9.13916
▁bánh	-9.13957
▁tín	-9.14022
▁nợ	-9.14402
▁hào	-9.1448
▁vay	-9.14912
▁soát	-9.15101
▁cậu	-9.1554
▁kem	-9.15634
▁giọng	-9.15774
▁bại	-9.16009
▁lãi	-9.16119
▁khủng	-9.1648
▁xinh	-9.16703
▁chục	-9.16716
▁sít	-9.16716
▁chai	-9.16965
▁tùy	-9.1744
▁bận	-9.17668
▁nhàng	-9.17915
▁ph	-9.17981
▁chán	-9.18139
▁tiện	-9.18387
▁lá	-9.18687
▁đổ	-9.18952
▁bền	-9.19398
▁ngại	-9.19842
▁mừng	-9.19871
▁phan	-9.19961
▁sài	-9.20094
▁chen	-9.20554
▁lệ	-9.2056
▁hương	-9.20577
▁trắng	-9.20577
▁âu	-9.20577
▁thí	-9.20586
▁bổng	-9.21162
▁tỉnh	-9.21335
▁hậu	-9.22064
▁buộc	-9.22314
▁đeo	-9.22331
▁nạ	-9.22437
▁hảo	-9.22498
ợ	-9.22685
▁săn	-9.22816
▁trực	-9.22816
▁cốt	-9.22859
▁can	-9.23637
▁mít	-9.23845
▁ơ	-9.24322
▁đảm	-9.24337
▁nồ	-9.2447
▁re	-9.24483
▁nặng	-9.24592
▁thúc	-9.24711
ú	-9.24733
▁cám	-9.24753
▁hầu	-9.24862
▁che	-9.24931
▁đo	-9.25041
▁thằng	-9.25364
▁dây	-9.2538
▁đào	-9.25704
▁thắng	-9.25885
▁cung	-9.26045
▁gòn	-9.26141
▁ánh	-9.26573
▁tuyển	-9.26662
▁bin	-9.26699
▁khô	-9.26902
▁dô	-9.2696
ỉ	-9.27145
▁niu	-9.27246
ộ	-9.27255
▁se	-9.27464
▁hòa	-9.27476
▁khám	-9.27735
▁gô	-9.27755
▁viu	-9.28133
▁ghét	-9.28257
▁sửa	-9.28418
▁lê	-9.28482
▁giàu	-9.28563
▁đón	-9.28644
▁hoàng	-9.28653
▁gắn	-9.28756
▁pót	-9.28776
▁rơi	-9.28776
▁trân	-9.28793
▁căng	-9.28803
▁sếp	-9.29587
▁lầm	-9.2985
▁lạc	-9.2991
▁eo	-9.30315
▁cắt	-9.30401
▁bét	-9.30585
▁lộ	-9.30608
▁o	-9.30914
▁giây	-9.30959
▁mỏi	-9.31483
▁kiên	-9.31805
▁nắm	-9.32033
▁vê	-9.32071
▁hút	-9.32309
▁thở	-9.32322
▁ke	-9.3254
▁rủi	-9.32638
▁bóng	-9.3268
▁kin	-9.33713
▁te	-9.3379
▁đét	-9.33998
▁lành	-9.34146
▁xứng	-9.34264
▁tóp	-9.3429
▁kim	-9.34448
▁quảng	-9.34594
▁ben	-9.34778
▁biểu	-9.3483
▁kéo	-9.3483
▁đòi	-9.3483
▁tò	-9.34842
▁khóc	-9.35017
▁tê	-9.35051
▁ước	-9.35156
▁nâu	-9.35399
▁siêu	-9.35399
▁vâng	-9.35426
▁tốn	-9.3562
▁đoán	-9.35685
▁phô	-9.35687
▁kém	-9.35971
▁đuổi	-9.35971
▁gỡ	-9.36278
▁sơn	-9.36562
è	-9.36726
▁nguyễn	-9.37126
▁be	-9.37249
▁răng	-9.37417
▁biện	-9.37417
▁líp	-9.37708
▁hôn	-9.37782
▁đợt	-9.38
▁chuyến	-9.38294
▁phạm	-9.38294
▁kêu	-9.38515
▁ủng	-9.38918
▁lạnh	-9.39231
▁thụ	-9.39507
▁ôn	-9.39799
▁thơ	-9.39995
▁lét	-9.40392
▁thao	-9.40702
▁song	-9.40801
▁biển	-9.41275
ò	-9.41425
▁thưởng	-9.41578
▁thuốc	-9.416
▁đơ	-9.42023
▁chụp	-9.42186
▁pờ	-9.42492
▁mò	-9.42823
▁khảo	-9.43122
▁huy	-9.43367
▁khắc	-9.43415
▁bù	-9.4346
▁bức	-9.44036
▁nấu	-9.44036
▁lơ	-9.44097
▁phiên	-9.44376
▁trừ	-9.44413
▁dấu	-9.4466
▁vít	-9.44977
▁tú	-9.45033
▁giấy	-9.45288
âm	-9.45414
ã	-9.45444
ần	-9.4549
▁nút	-9.45603
▁đẩy	-9.45603
▁trét	-9.45617
▁mây	-9.45624
▁ủa	-9.45937
▁giảng	-9.46015
▁mếch	-9.47517
▁chối	-9.47517
▁dơ	-9.47563
▁khứ	-9.48174
▁tri	-9.48471
▁mềm	-9.48488
▁no	-9.48645
▁tổn	-9.487
▁não	-9.48814
▁lẻ	-9.48827
▁gồ	-9.489
▁thiền	-9.4914
▁miễn	-9.49468
▁chậm	-9.50127
▁đê	-9.50152
▁im	-9.50388
▁lối	-9.50458
▁nóng	-9.50491
▁nhi	-9.50607
▁rin	-9.50646
▁nghi	-9.50776
ân	-9.50828
ọ	-9.50858
en	-9.51441
▁lao	-9.51459
▁cập	-9.51803
h	-9.51866
▁gốc	-9.52148
▁ninh	-9.52171
▁thừa	-9.52468
▁đoàn	-9.52468
▁dét	-9.52485
▁khẩu	-9.52807
▁lin	-9.53235
ứ	-9.53391
▁rửa	-9.53489
▁hồn	-9.53692
▁lẫn	-9.53831
▁thai	-9.53916
▁dịp	-9.54204
▁từn	-9.54298
▁thấu	-9.5452
▁mại	-9.54603
ả	-9.54949
▁phỏng	-9.55213
▁lót	-9.55213
ắt	-9.55906
▁nửa	-9.55911
▁già	-9.56192
▁bí	-9.56218
▁phít	-9.56236
▁bạc	-9.56254
▁giận	-9.56262
▁huống	-9.56262
▁viện	-9.56615
▁cơm	-9.56684
▁mảng	-9.56967
▁bổ	-9.57209
▁rèn	-9.57322
▁thùy	-9.57359
▁giấc	-9.57678
▁thuần	-9.57722
▁nai	-9.58234
ây	-9.5829
▁cháu	-9.58394
▁nghiêm	-9.58399
▁khối	-9.58753
▁rượu	-9.58753
▁tắt	-9.58766
▁khoán	-9.58782
▁duyên	-9.58795
▁ve	-9.58955
ừn	-9.59142
▁gồm	-9.59239
▁chữa	-9.5927
▁lông	-9.59285
▁thơm	-9.59613
▁lã	-9.59671
▁xít	-9.5984
▁hoài	-9.59843
▁tùng	-9.59881
▁nhở	-9.6059
ầ	-9.60655
▁quê	-9.60751
▁lặng	-9.60939
▁thuận	-9.60939
▁tái	-9.61362
▁tả	-9.6176
▁hàn	-9.61771
▁lóc	-9.6205
át	-9.62067
▁le	-9.62201
ỗ	-9.62229
▁bách	-9.62459
ên	-9.62594
▁thịt	-9.6264
▁bút	-9.62798
▁phẩy	-9.63174
▁úc	-9.63174
▁nguy	-9.6319
▁hại	-9.63308
▁tồn	-9.63726
ỏ	-9.63827
▁chó	-9.6387
▁tạm	-9.63971
▁ho	-9.64059
▁tan	-9.6433
▁meo	-9.65232
▁ẩm	-9.65846
▁phấn	-9.65846
▁cục	-9.66057
▁phen	-9.66065
▁nhuận	-9.66233
▁nọ	-9.66265
▁hư	-9.66346
▁rờ	-9.66531
▁rưỡi	-9.66622
▁bó	-9.66776
▁he	-9.66834
▁gương	-9.67013
▁quyển	-9.67013
▁ắp	-9.67013
▁gọn	-9.67016
▁kích	-9.67027
ỡ	-9.6728
▁thảo	-9.67476
▁nhãn	-9.67825
▁thả	-9.67973
▁tốc	-9.67994
▁phe	-9.68003
▁kịch	-9.68591
▁hấp	-9.68591
▁vẽ	-9.68614
ừ	-9.68855
▁lứa	-9.68989
▁mâu	-9.69389
▁bấm	-9.69791
▁chăng	-9.69798
▁banh	-9.69905
▁trần	-9.70221
▁trầm	-9.70599
▁tĩnh	-9.70599
▁hè	-9.70673
▁phu	-9.70758
▁bảng	-9.7084
▁lờ	-9.71321
▁khôi	-9.72092
▁ê	-9.72208
▁đắt	-9.72266
▁xô	-9.72298
▁tắm	-9.72648
▁né	-9.72773
ọt	-9.7287
▁sần	-9.73097
▁rối	-9.7348
▁phối	-9.73516
▁ram	-9.73799
▁sóng	-9.73898
▁rẻ	-9.73917
▁cư	-9.73922
▁lỡ	-9.73933
▁tếch	-9.74043
▁ngọt	-9.74349
▁tỏ	-9.74692
▁bon	-9.74699
▁kịp	-9.7474
▁sóp	-9.75164
▁chàng	-9.75164
ũ	-9.75519
▁túc	-9.7565
▁át	-9.75693
▁nhé	-9.75735
▁lược	-9.76017
▁miếng	-9.76017
▁long	-9.76115
▁seo	-9.76133
ở	-9.76172
▁ôm	-9.76681
▁bày	-9.76694
▁cú	-9.76798
▁nguyện	-9.76877
▁ráp	-9.76877
▁rồ	-9.77009
ị	-9.77146
▁phom	-9.7717
▁sữa	-9.7731
▁tươi	-9.77311
▁tầng	-9.77324
▁mẽ	-9.77331
▁bơi	-9.77398
▁rời	-9.77501
▁dày	-9.77745
▁nhiệt	-9.77745
▁cột	-9.78182
▁mu	-9.78414
ập	-9.78511
▁đằng	-9.7862
▁phơ	-9.79804
▁hoảng	-9.79948
▁lười	-9.80394
▁gói	-9.80394
▁ấm	-9.80394
▁miền	-9.80394
▁nho	-9.80669
▁tẩy	-9.80842
▁óp	-9.80843
▁trụ	-9.80893
▁bối	-9.81256
▁kính	-9.81327
▁tren	-9.81422
ì	-9.81425
▁vũ	-9.81776
▁tải	-9.81955
▁rớt	-9.822
▁tồ	-9.82454
▁sót	-9.82657
▁tiếc	-9.82657
▁khen	-9.82851
▁kèm	-9.83115
▁giám	-9.8348
▁mụn	-9.83576
▁gà	-9.83916
▁kiu	-9.8406
▁típ	-9.84219
▁kho	-9.8455
▁ngôi	-9.84972
▁ôi	-9.85211
▁kí	-9.85251
▁lõi	-9.85441
▁nhạy	-9.85441
▁dọn	-9.85441
▁phét	-9.85451
▁đừn	-9.85454
▁thủy	-9.86032
▁hộp	-9.86051
ét	-9.86081
▁hiếu	-9.86387
▁ngũ	-9.8642
▁trim	-9.86552
▁đì	-9.86855
▁trúc	-9.86879
▁tạp	-9.86888
▁bá	-9.87323
▁bắc	-9.87341
▁hạ	-9.87368
▁phôn	-9.87848
▁den	-9.87987
▁cồ	-9.88039
▁chê	-9.88064
▁ngoái	-9.88305
▁ngơi	-9.88305
▁xài	-9.88322
▁vả	-9.88345
▁ne	-9.88574
▁bụng	-9.88791
▁hót	-9.88791
▁ao	-9.89108
▁đỉnh	-9.89278
▁ngang	-9.89351
êm	-9.89463
ặ	-9.89709
▁tách	-9.89845
▁rác	-9.90254
ẽ	-9.90647
ước	-9.90681
▁chừng	-9.90756
▁tui	-9.90783
▁khúc	-9.91254
▁xích	-9.91254
▁liệt	-9.91254
▁nốt	-9.91319
▁đám	-9.91562
▁dương	-9.91754
▁lếch	-9.91754
▁dạo	-9.91885
▁phú	-9.92149
▁tỉ	-9.92246
▁ghêm	-9.92344
▁ác	-9.92511
▁cãi	-9.93269
▁sớt	-9.93269
▁điệp	-9.9378
▁thoát	-9.93785
▁vét	-9.93888
▁phóng	-9.93898
▁lọc	-9.94292
▁nhấn	-9.94292
▁lệch	-9.94326
▁thuê	-9.94387
▁tiểu	-9.94808
▁dừn	-9.9482
iềm	-9.95147
ốc	-9.95268
▁thù	-9.95322
▁síp	-9.95326
▁đấu	-9.95326
▁miệng	-9.95326
▁đinh	-9.95498
▁go	-9.9566
▁bậc	-9.95846
▁khấu	-9.95846
▁gấp	-9.95847
▁thoảng	-9.95915
▁trông	-9.95918
▁cưới	-9.96374
▁chim	-9.96714
▁mì	-9.96888
▁phận	-9.96896
ậ	-9.97286
ẹ	-9.9738
▁xịt	-9.97425
▁phán	-9.97703
▁non	-9.9812
ến	-9.98384
▁lặp	-9.98492
▁máu	-9.98665
ướng	-9.98797
▁ven	-9.98852
▁cứng	-9.98941
ự	-9.98968
▁dít	-9.9903
▁gợi	-9.9903
▁thạc	-9.99049
▁mật	-9.99051
▁bóp	-9.99105
▁boi	-9.99257
▁vỡ	-9.9961
▁dồi	-9.99668
▁khe	-9.99934
▁nơ	-10.0003
▁lướt	-10.0011
▁quỳnh	-10.0011
▁trôi	-10.0021
▁vé	-10.0066
ổ	-10.0097
▁ngừng	-10.0121
▁đèn	-10.0121
▁tủ	-10.0121
▁tuệ	-10.0135
▁tốp	-10.0153
▁huyền	-10.0176
▁hãng	-10.0176
▁bông	-10.0182
▁kíp	-10.0183
▁cấu	-10.0232
▁dai	-10.0233
▁bia	-10.0245
▁bích	-10.029
▁ừn	-10.0302
▁vinh	-10.0333
▁dũng	-10.0344
▁pa	-10.0344
▁quét	-10.0345
ồng	-10.0351
▁thua	-10.0399
▁đắc	-10.04
▁hổ	-10.0406
▁sung	-10.0428
▁hải	-10.0444
▁phó	-10.0448
▁hứa	-10.0457
▁guy	-10.0477
▁thăm	-10.0514
▁tỏa	-10.0523
▁man	-10.0553
▁khuyế	-10.0564
▁muộn	-10.0572
▁ngọc	-10.0572
▁vội	-10.0572
▁lưng	-10.063
▁mã	-10.0687
▁bốt	-10.0692
▁quang	-10.0713
ật	-10.0732
▁mưa	-10.0746
▁lễ	-10.0749
▁chốt	-10.0754
▁rảnh	-10.0805
▁dáng	-10.0807
▁đắn	-10.0821
▁khát	-10.0823
▁gai	-10.0824
▁vu	-10.0836
▁hạng	-10.0852
▁dính	-10.0864
▁quân	-10.0867
▁hàm	-10.0906
▁giãn	-10.0924
▁bóc	-10.0931
▁nin	-10.0957
▁phức	-10.0984
▁trồng	-10.0986
▁chửi	-10.1044
▁tấm	-10.1044
▁hen	-10.1086
▁tó	-10.1091
▁lỗ	-10.1093
▁dư	-10.1099
▁sàn	-10.1105
▁đát	-10.1136
▁chì	-10.1231
▁hao	-10.1239
▁than	-10.1243
▁tho	-10.126
▁thắc	-10.1288
▁trơn	-10.1288
▁khoảnh	-10.1291
▁đập	-10.1292
ồ	-10.1297
▁kẻ	-10.1351
▁nhẫn	-10.1351
▁thận	-10.1351
▁phiền	-10.1351
▁dở	-10.1354
▁trinh	-10.1357
▁ghen	-10.1413
▁chạm	-10.1413
▁chát	-10.1418
▁rát	-10.1419
▁tròn	-10.1463
▁râu	-10.1476
▁tội	-10.1476
▁tần	-10.1476
▁mon	-10.1478
▁trích	-10.1492
▁mồ	-10.152
▁đắp	-10.1539
▁quép	-10.1543
▁hét	-10.1546
▁lạm	-10.1575
▁dị	-10.1592
▁hò	-10.1608
▁ghê	-10.1656
▁cặp	-10.1667
▁lượt	-10.1667
▁móc	-10.1667
▁khơi	-10.1667
▁quát	-10.1708
▁miu	-10.1722
ể	-10.1727
▁trọn	-10.173
▁thẻ	-10.1733
▁đốc	-10.1735
▁chếch	-10.1741
▁tiêm	-10.1756
▁lái	-10.1778
▁phun	-10.179
▁tàu	-10.1797
▁hối	-10.1797
▁tân	-10.1799
▁hô	-10.1819
▁tán	-10.1842
▁din	-10.1848
▁hạt	-10.1873
▁gió	-10.1876
▁nê	-10.1881
▁tụ	-10.1911
▁đột	-10.1925
▁gũi	-10.1928
▁chợ	-10.1935
▁kít	-10.1939
▁thang	-10.1942
▁thỉnh	-10.1994
▁chiếm	-10.1994
▁chét	-10.1998
▁nộp	-10.2061
▁leo	-10.2073
▁rum	-10.2093
▁biu	-10.2107
▁cẩn	-10.2128
▁thỏa	-10.2128
▁mũi	-10.2128
▁cốc	-10.2139
▁dưng	-10.2142
▁bôi	-10.2157
▁giường	-10.2195
▁táo	-10.2199
▁phao	-10.2225
▁giày	-10.2274
▁kha	-10.2328
▁bề	-10.2328
▁đặn	-10.2336
▁chóng	-10.2356
▁đai	-10.238
▁lích	-10.2401
▁trưa	-10.2401
▁hê	-10.2416
▁tha	-10.2426
▁cắp	-10.247
▁cởi	-10.247
▁nghèo	-10.247
▁lì	-10.2475
▁nạn	-10.2519
▁dâu	-10.254
▁phạt	-10.254
▁đậm	-10.254
▁cỡ	-10.2542
▁sông	-10.2574
▁mãn	-10.2595
▁núi	-10.2611
▁điển	-10.2611
▁dịu	-10.2618
▁mạ	-10.2658
▁mộ	-10.2666
▁thuẫn	-10.2681
▁chiếu	-10.2681
▁ấp	-10.2681
▁xì	-10.2685
▁bỗ	-10.2687
▁biên	-10.2706
▁dim	-10.2721
▁khung	-10.2732
▁lung	-10.2737
▁dinh	-10.274
▁chuỗi	-10.2753
▁soi	-10.2755
▁heo	-10.2766
▁lừa	-10.2825
▁hít	-10.2825
▁sướng	-10.2828
▁vồ	-10.2848
▁cánh	-10.2862
▁nen	-10.2862
▁nu	-10.2882
õ	-10.2894
▁hùng	-10.2897
▁đẻ	-10.29
▁hắt	-10.2908
▁uy	-10.2914
▁hông	-10.2917
▁lôi	-10.2964
▁chặ	-10.2966
▁dán	-10.2968
▁giấu	-10.3044
▁đùa	-10.3047
▁treo	-10.3049
▁khích	-10.3051
▁chảy	-10.307
▁tớ	-10.3106
▁sạn	-10.3118
▁khao	-10.3126
▁cọ	-10.315
▁khiếp	-10.3152
▁mực	-10.3192
▁ngẫm	-10.3192
▁tị	-10.3193
▁tông	-10.3222
ễ	-10.326
▁nhựa	-10.3268
▁gút	-10.3268
▁vĩ	-10.3268
▁bò	-10.3275
ài	-10.3331
▁đựng	-10.3343
▁lân	-10.3351
▁cò	-10.3354
▁ci	-10.3407
▁xóm	-10.342
▁sồ	-10.3423
▁lách	-10.3425
▁cúp	-10.343
▁niên	-10.3436
▁lửa	-10.3497
▁rót	-10.3497
▁loạn	-10.3498
▁phật	-10.3498
▁de	-10.3555
▁mốc	-10.3578
▁dắt	-10.3579
▁sam	-10.362
▁rốt	-10.3665
ẻ	-10.371
▁vết	-10.3743
▁say	-10.3791
▁óc	-10.381
▁ghép	-10.3813
▁ngập	-10.3816
▁canh	-10.3884
▁đảo	-10.389
▁nao	-10.3896
▁nát	-10.3896
▁lăn	-10.3971
▁nhầm	-10.3971
▁vất	-10.3971
▁nghị	-10.4051
▁phớt	-10.4052
▁điệu	-10.4053
▁khuyết	-10.4064
▁lũy	-10.4134
▁mượn	-10.4134
▁lục	-10.4134
▁đạp	-10.4134
▁tuấn	-10.4134
▁dĩ	-10.4135
▁sứ	-10.4136
▁sây	-10.414
▁huyết	-10.4221
▁cử	-10.4295
▁hận	-10.43
▁loa	-10.4305
▁kẹt	-10.4384
▁vẹn	-10.4384
▁hãi	-10.4384
▁bếp	-10.4387
▁gêm	-10.4389
ới	-10.4446
▁thăng	-10.4469
▁po	-10.4469
▁khoe	-10.4471
▁hoang	-10.4493
▁rích	-10.4555
▁ngăn	-10.4641
▁săm	-10.4641
▁gót	-10.4641
▁mùng	-10.4641
▁cừn	-10.4644
▁nây	-10.4647
▁pin	-10.4667
▁xương	-10.4728
▁mến	-10.4732
▁lừn	-10.4825
▁hép	-10.4836
▁thải	-10.4854
▁chinh	-10.489
▁nhiễm	-10.4904
▁diệu	-10.4904
▁ghế	-10.4904
▁mẻ	-10.4907
▁vây	-10.4911
▁nga	-10.4952
▁chay	-10.4961
▁kệ	-10.4993
▁kỉ	-10.4993
▁đúc	-10.4993
▁thiểu	-10.4993
▁dối	-10.4993
▁thưa	-10.502
▁lộn	-10.5023
▁lường	-10.5083
▁mệnh	-10.5083
▁mỏng	-10.5083
▁ngu	-10.5155
▁phiu	-10.5174
▁cường	-10.5174
▁ních	-10.5174
▁pồ	-10.5174
▁đầm	-10.5174
▁tấn	-10.5174
▁rủ	-10.5251
▁bực	-10.5266
▁đậu	-10.5266
▁ẩn	-10.5266
▁lắc	-10.5266
▁vừn	-10.5274
▁chặt	-10.5277
▁bốc	-10.5318
▁củ	-10.5353
▁thác	-10.5358
▁hiếm	-10.5359
▁kìa	-10.5386
▁rộn	-10.545
▁rào	-10.5452
▁sắm	-10.5452
▁ngã	-10.5461
▁tre	-10.5528
▁xoay	-10.5549
▁phơi	-10.5583
▁thô	-10.5623
▁que	-10.5627
▁dồ	-10.5628
▁muối	-10.5642
▁nghiện	-10.5642
▁rúp	-10.5642
▁ốm	-10.5642
▁bầu	-10.5644
▁chênh	-10.5649
▁gơ	-10.5657
ọp	-10.5666
▁trô	-10.5719
▁nhạt	-10.5738
▁ảo	-10.5738
▁băng	-10.5739
▁hiến	-10.574
▁chở	-10.5744
▁ồn	-10.5749
▁dích	-10.5835
▁thấm	-10.5835
▁gội	-10.5835
▁gien	-10.5844
▁nhét	-10.5858
ử	-10.5923
▁lắp	-10.5933
▁xịn	-10.5933
▁bì	-10.5936
▁triết	-10.5937
▁cáp	-10.6012
▁tường	-10.6032
▁vở	-10.6039
▁lâm	-10.6042
▁chuông	-10.6132
▁hiền	-10.6132
▁lỏng	-10.6132
▁trưng	-10.6132
▁rừng	-10.6134
▁neo	-10.6147
▁chua	-10.6165
▁bão	-10.6233
ầu	-10.6238
▁thuế	-10.6256
▁móng	-10.6258
▁my	-10.6285
▁thỏi	-10.6335
▁thập	-10.634
▁dỗ	-10.6341
▁tạ	-10.6407
▁đe	-10.6412
▁ngực	-10.6438
▁mạch	-10.644
▁hôi	-10.6465
▁trào	-10.6472
ếp	-10.6501
▁hiển	-10.6542
▁cắm	-10.6542
▁trận	-10.6542
▁vươn	-10.6542
▁khuôn	-10.6542
▁tuyến	-10.6548
▁lệnh	-10.6557
▁mộng	-10.6562
▁gâu	-10.6647
▁thánh	-10.6648
▁guốc	-10.6651
▁lốc	-10.6654
▁thà	-10.6654
▁thẩm	-10.6754
▁dặn	-10.6754
▁mích	-10.6755
▁chăn	-10.6859
▁khắp	-10.6861
▁ngưỡng	-10.6861
▁uyên	-10.6862
▁tàn	-10.6877
▁cương	-10.697
▁út	-10.697
▁xả	-10.6973
▁giật	-10.6976
▁thâm	-10.6977
▁nếch	-10.708
▁bắp	-10.708
ý	-10.752
ủ	-10.9134
ỳ	-11.2914
ỷ	-11.7319
ữ	-11.8618
ĩ	-11.9354
ỵ	-12.0998
ẵ	-13.5053
ẳ	-13.5054
ẩ	-13.5055
ẫ	-13.5056
ằ	-13.5057
ă	-13.5058
x	-13.5059
q	-13.506
d	-13.5061
â	-13.5062
k	-13.5063
s	-13.5064
b	-13.5065
r	-13.5066
v	-13.5067
l	-13.5068
đ	-13.5069
ỹ	-13.5069
